#include <cstddef>
namespace nano {
	unsigned char nano_bootstrap_weights_live[] = {0x00,0x00,0x00,0x00,0x00,0x00,0x00,0x00,0x00,0x00,0x00,0x00,0x00,0x00,0x20,0x53,0xae,0xfe,0x0c,0x9c,0x9f,0x9f,0x69,0x4e,0x10,0xf3,0x44,0x03,0x4a,0x7a,0x0e,0x19,0xbf,0x27,0x24,0x4e,0xe5,0x4b,0x32,0x6d,0xba,0xf9,0x19,0x96,0x48,0x9c,0x44,0xe8,0x1d,0x77,0x62,0x14,0xd8,0xe7,0xec,0xf4,0xcf,0xe2,0x41,0x24,0xe9,0xdb,0x9a,0x82,0xb7,0x78,0xc7,0xab,0x44,0x59,0x77,0x46,0xc7,0xfc,0x4f,0x29,0x05,0x5b,0xb6,0xc0,0x38,0xce,0x96,0x84,0xba,0xde,0xdf,0xb5,0x8e,0xca,0x73,0x8e,0xb9,0xcd,0x01,0x9e,0x1d,0x71,0x69,0x0d,0xf7,0x1d,0x4c,0xff,0xca,0x6a,0x62,0xf5,0x60,0x27,0x5b,0xde,0x55,0x36,0x87,0xe3,0x0b,0xd3,0xb3,0xb5,0xf8,0x16,0x96,0xac,0x09,0x92,0xa3,0xd2,0x51,0x25,0xb2,0x87,0x21,0xf4,0x1c,0x7a,0x52,0x39,0xb1,0xd4,0x90,0xd7,0xbb,0xad,0x19,0xa0,0x4a,0x53,0x52,0x4d,0x35,0x67,0x02,0x20,0x27,0x91,0x4c,0xe7,0x3e,0x5f,0x93,0xdd,0xaf,0xeb,0x9d,0xf1,0x57,0xd8,0xbd,0x7c,0x20,0xa8,0x9a,0xa1,0x5c,0x24,0x96,0x4c,0xa4,0x6f,0xa3,0x97,0xe1,0x7f,0x99,0xfc,0x81,0x92,0x2e,0x03,0x5e,0xde,0x19,0x9e,0x7f,0xed,0x2d,0x8d,0x2b,0xbe,0x14,0xaa,0x88,0x3e,0xc9,0x60,0xb3,0x5c,0x47,0x77,0xbc,0xb6,0xfe,0x9e,0xdd,0x9a,0x43,0x9c,0xa8,0x8a,0xfa,0x37,0x69,0x41,0x5e,0x94,0xcf,0x57,0xd3,0x47,0x4c,0x6e,0x15,0x26,0x87,0xfb,0x36,0x7a,0x56,0xf1,0x19,0x99,0xb7,0x60,0xb3,0x49,0x16,0xe4,0x7f,0xfa,0x8c,0xdf,0x9f,0x64,0xa8,0x8b,0xda,0xd6,0xb8,0x59,0xaf,0xca,0xd4,0x58,0x74,0x1a,0x77,0xd4,0xfb,0x01,0xd8,0x16,0x8f,0x5a,0x54,0xaf,0xc9,0xad,0xf7,0xf6,0xa0,0xf7,0x56,0xa9,0xd9,0x73,0x67,0x64,0x19,0x99,0xb7,0x2a,0x39,0x2b,0xe7,0xc7,0x1b,0x83,0x99,0x90,0x1a,0x89,0xfd,0xe1,0xc1,0x6a,0xa4,0x4f,0xd5,0x23,0xe8,0x4b,0xe5,0x40,0x9f,0x5b,0x8e,0x8d,0x2e,0x8a,0x60,0x76,0x92,0x79,0x4a,0xe7,0xf3,0x0e,0xea,0xe8,0x0f,0xbb,0x5d,0x57,0xed,0xcb,0x19,0x99,0xb7,0x2a,0x39,0x2b,0xe7,0xc7,0x1b,0x83,0x99,0x90,0x1a,0x89,0xfd,0xe1,0x1c,0xf1,0xb2,0x8c,0xd7,0x31,0xe1,0x74,0xfd,0xa9,0xd3,0xea,0xe3,0xa3,0x45,0x0a,0x97,0x83,0x2b,0x22,0xf4,0x93,0xa5,0x7e,0xed,0xcb,0x32,0xcf,0xe8,0x0d,0x1c,0xfa,0x19,0x99,0xb7,0x2a,0x39,0x2b,0xe7,0xc7,0x1b,0x83,0x99,0x90,0x1a,0x89,0xfd,0xe1,0x61,0x83,0xac,0x08,0xae,0xbb,0xf1,0x0e,0x2e,0xd3,0xaa,0x26,0x41,0x68,0x9a,0x5d,0xf0,0x84,0x18,0x39,0x7a,0x54,0x8e,0x1c,0x66,0x64,0xc2,0x1d,0x0d,0x60,0x69,0x52,0x17,0x13,0x30,0xac,0x9d,0x4b,0xad,0x82,0x9e,0x7f,0x9b,0xb2,0xb2,0xea,0x87,0xeb,0xfb,0xdf,0x10,0xff,0xa5,0x68,0x45,0xe8,0x91,0x00,0xd6,0x8d,0x4c,0xa5,0xba,0xe3,0xf6,0x5e,0xa8,0x90,0x0d,0x53,0xa3,0xf6,0x66,0xbe,0xb9,0xa7,0x70,0xe5,0x40,0xca,0x14,0x29,0x49,0x78,0x14,0x48,0xc8,0x11,0xb1,0xe5,0xa8,0xb2,0x81,0x4b,0x22,0x22, 0x00};
	size_t nano_bootstrap_weights_live_size = sizeof(nano_bootstrap_weights_live) - 1;
}
